unsigned char fomo_detector_int8_tflite[] = {
  0x20, 0x00, 0x00, 0x00, 0x54, 0x46, 0x4c, 0x33, 0x00, 0x00, 0x00, 0x00,
  0x14, 0x00, 0x20, 0x00, 0x1c, 0x00, 0x18, 0x00, 0x14, 0x00, 0x10, 0x00,
  0x0c, 0x00, 0x00, 0x00, 0x08, 0x00, 0x04, 0x00, 0x14, 0x00, 0x00, 0x00,
  0x1c, 0x00, 0x00, 0x00, 0x84, 0x00, 0x00, 0x00, 0xdc, 0x00, 0x00, 0x00,
  0xc4, 0x09, 0x00, 0x00, 0xd4, 0x09, 0x00, 0x00, 0xd8, 0x16, 0x00, 0x00,
  0x03, 0x00, 0x00, 0x00, 0x01, 0x00, 0x00, 0x00, 0x04, 0x00, 0x00, 0x00,
  0xea, 0xf5, 0xff, 0xff, 0x0c, 0x00, 0x00, 0x00, 0x1c, 0x00, 0x00, 0x00,
  0x3c, 0x00, 0x00, 0x00, 0x0f, 0x00, 0x00, 0x00, 0x73, 0x65, 0x72, 0x76,
  0x69, 0x6e, 0x67, 0x5f, 0x64, 0x65, 0x66, 0x61, 0x75, 0x6c, 0x74, 0x00,
  0x01, 0x00, 0x00, 0x00, 0x04, 0x00, 0x00, 0x00, 0x98, 0xff, 0xff, 0xff,
  0x0d, 0x00, 0x00, 0x00, 0x04, 0x00, 0x00, 0x00, 0x09, 0x00, 0x00, 0x00,
  0x63, 0x6f, 0x6e, 0x76, 0x32, 0x64, 0x5f, 0x32, 0x33, 0x00, 0x00, 0x00,
  0x01, 0x00, 0x00, 0x00, 0x04, 0x00, 0x00, 0x00, 0xc6, 0xf6, 0xff, 0xff,
  0x04, 0x00, 0x00, 0x00, 0x07, 0x00, 0x00, 0x00, 0x69, 0x6e, 0x70, 0x75,
  0x74, 0x5f, 0x37, 0x00, 0x02, 0x00, 0x00, 0x00, 0x34, 0x00, 0x00, 0x00,
  0x04, 0x00, 0x00, 0x00, 0xdc, 0xff, 0xff, 0xff, 0x10, 0x00, 0x00, 0x00,
  0x04, 0x00, 0x00, 0x00, 0x13, 0x00, 0x00, 0x00, 0x43, 0x4f, 0x4e, 0x56,
  0x45, 0x52, 0x53, 0x49, 0x4f, 0x4e, 0x5f, 0x4d, 0x45, 0x54, 0x41, 0x44,
  0x41, 0x54, 0x41, 0x00, 0x08, 0x00, 0x0c, 0x00, 0x08, 0x00, 0x04, 0x00,
  0x08, 0x00, 0x00, 0x00, 0x0f, 0x00, 0x00, 0x00, 0x04, 0x00, 0x00, 0x00,
  0x13, 0x00, 0x00, 0x00, 0x6d, 0x69, 0x6e, 0x5f, 0x72, 0x75, 0x6e, 0x74,
  0x69, 0x6d, 0x65, 0x5f, 0x76, 0x65, 0x72, 0x73, 0x69, 0x6f, 0x6e, 0x00,
  0x11, 0x00, 0x00, 0x00, 0xe4, 0x08, 0x00, 0x00, 0xd8, 0x08, 0x00, 0x00,
  0xc4, 0x08, 0x00, 0x00, 0x9c, 0x08, 0x00, 0x00, 0x4c, 0x08, 0x00, 0x00,
  0xbc, 0x03, 0x00, 0x00, 0x8c, 0x03, 0x00, 0x00, 0x3c, 0x01, 0x00, 0x00,
  0x0c, 0x01, 0x00, 0x00, 0xb4, 0x00, 0x00, 0x00, 0xac, 0x00, 0x00, 0x00,
  0xa4, 0x00, 0x00, 0x00, 0x9c, 0x00, 0x00, 0x00, 0x94, 0x00, 0x00, 0x00,
  0x8c, 0x00, 0x00, 0x00, 0x6c, 0x00, 0x00, 0x00, 0x04, 0x00, 0x00, 0x00,
  0x7e, 0xf7, 0xff, 0xff, 0x04, 0x00, 0x00, 0x00, 0x58, 0x00, 0x00, 0x00,
  0x0c, 0x00, 0x00, 0x00, 0x08, 0x00, 0x0e, 0x00, 0x08, 0x00, 0x04, 0x00,
  0x08, 0x00, 0x00, 0x00, 0x10, 0x00, 0x00, 0x00, 0x28, 0x00, 0x00, 0x00,
  0x00, 0x00, 0x06, 0x00, 0x08, 0x00, 0x04, 0x00, 0x06, 0x00, 0x00, 0x00,
  0x04, 0x00, 0x00, 0x00, 0x01, 0x00, 0x00, 0x00, 0xeb, 0x03, 0x00, 0x00,
  0x00, 0x00, 0x0a, 0x00, 0x10, 0x00, 0x0c, 0x00, 0x08, 0x00, 0x04, 0x00,
  0x0a, 0x00, 0x00, 0x00, 0x01, 0x00, 0x00, 0x00, 0x02, 0x00, 0x00, 0x00,
  0x04, 0x00, 0x00, 0x00, 0x06, 0x00, 0x00, 0x00, 0x32, 0x2e, 0x31, 0x30,
  0x2e, 0x30, 0x00, 0x00, 0xe2, 0xf7, 0xff, 0xff, 0x04, 0x00, 0x00, 0x00,
  0x10, 0x00, 0x00, 0x00, 0x31, 0x2e, 0x31, 0x34, 0x2e, 0x30, 0x00, 0x00,
  0x00, 0x00, 0x00, 0x00, 0x00, 0x00, 0x00, 0x00, 0xe4, 0xf7, 0xff, 0xff,
  0xe8, 0xf7, 0xff, 0xff, 0xec, 0xf7, 0xff, 0xff, 0xf0, 0xf7, 0xff, 0xff,
  0xf4, 0xf7, 0xff, 0xff, 0x12, 0xf8, 0xff, 0xff, 0x04, 0x00, 0x00, 0x00,
  0x48, 0x00, 0x00, 0x00, 0xcb, 0x0f, 0xf7, 0xfb, 0x2f, 0x7f, 0xcf, 0xe2,
  0x0b, 0x4d, 0x4a, 0x10, 0x40, 0xee, 0x06, 0x8a, 0x81, 0xfb, 0xe4, 0x7f,
  0x15, 0xd3, 0x09, 0x14, 0x06, 0x4b, 0x1e, 0x5c, 0xda, 0x30, 0x68, 0xe6,
  0x7f, 0x48, 0x7d, 0x68, 0x4e, 0x02, 0x7f, 0xf7, 0x43, 0xc8, 0x18, 0xd6,
  0xc4, 0x07, 0x43, 0x22, 0xb3, 0xf2, 0x34, 0x1c, 0x7f, 0x65, 0x6f, 0x7f,
  0x8e, 0x38, 0x09, 0xc0, 0x4f, 0x74, 0x4c, 0xbc, 0x1c, 0x4d, 0x46, 0xfd,
  0x60, 0x81, 0xac, 0x61, 0x66, 0xf8, 0xff, 0xff, 0x04, 0x00, 0x00, 0x00,
  0x20, 0x00, 0x00, 0x00, 0x8c, 0xee, 0xff, 0xff, 0xc2, 0x07, 0x00, 0x00,
  0x80, 0x1b, 0x00, 0x00, 0xa0, 0x1c, 0x00, 0x00, 0xd3, 0xda, 0xff, 0xff,
  0x22, 0x28, 0x00, 0x00, 0x68, 0x18, 0x00, 0x00, 0xf0, 0xe2, 0xff, 0xff,
  0x92, 0xf8, 0xff, 0xff, 0x04, 0x00, 0x00, 0x00, 0x40, 0x02, 0x00, 0x00,
  0x44, 0x3e, 0x10, 0x23, 0xf6, 0xb9, 0x50, 0x2f, 0xfe, 0x7f, 0xbe, 0xae,
  0x7f, 0xf5, 0xea, 0x40, 0xfa, 0x39, 0x5d, 0x57, 0x21, 0x5f, 0xee, 0x57,
  0x56, 0x50, 0x05, 0x3d, 0xed, 0x23, 0xed, 0x04, 0xf2, 0x66, 0x3d, 0xac,
  0xf9, 0x20, 0xf1, 0xf0, 0x1f, 0x28, 0x15, 0xb9, 0xb3, 0x5b, 0xf3, 0x45,
  0x48, 0x23, 0x1c, 0xff, 0xd9, 0x53, 0x08, 0x01, 0xd0, 0x1f, 0xf7, 0xb4,
  0x6e, 0xbe, 0x01, 0x04, 0x57, 0xd8, 0xdf, 0xb4, 0xf1, 0x1f, 0x2f, 0x5c,
  0x88, 0xb3, 0x02, 0xed, 0xb1, 0x41, 0x21, 0x0f, 0xac, 0x06, 0x4a, 0x29,
  0x00, 0xf2, 0xd9, 0xb6, 0xc1, 0xdb, 0x18, 0x00, 0xca, 0x15, 0x2a, 0xe0,
  0xff, 0x36, 0xf6, 0xfe, 0x91, 0x4f, 0x49, 0xb3, 0x0c, 0xdb, 0x3e, 0x46,
  0xd6, 0xd9, 0x3d, 0x0d, 0xe7, 0x30, 0xe5, 0x33, 0x2a, 0x4b, 0xe5, 0xd7,
  0xaa, 0x81, 0x61, 0xf6, 0xb3, 0x1f, 0xe9, 0xee, 0xd8, 0x02, 0x4b, 0x5f,
  0xf8, 0xec, 0x4b, 0xd4, 0xb3, 0x9f, 0x36, 0xdb, 0xf7, 0x5c, 0xe6, 0xd7,
  0xe7, 0xc4, 0x0d, 0x37, 0xa2, 0x06, 0xdf, 0xb0, 0x95, 0x17, 0xe5, 0x00,
  0xeb, 0x5b, 0xb8, 0x24, 0xee, 0x3b, 0x57, 0xd4, 0xaa, 0xa2, 0x04, 0x07,
  0xb2, 0xfd, 0x33, 0xf3, 0xdb, 0x9d, 0x48, 0x42, 0x81, 0xbe, 0x5a, 0xc3,
  0x20, 0x23, 0xa6, 0x18, 0xec, 0xe4, 0xdf, 0x15, 0xc0, 0xaa, 0x46, 0x5d,
  0x11, 0x94, 0x3d, 0xeb, 0xc3, 0x46, 0x34, 0x27, 0x03, 0x31, 0x9f, 0x1b,
  0xf3, 0xb4, 0x2b, 0xd6, 0xe6, 0x8d, 0x07, 0xf6, 0x1d, 0x31, 0xc7, 0x9d,
  0x7b, 0xf4, 0xf0, 0x0d, 0x1f, 0x5c, 0x45, 0x71, 0x2e, 0x28, 0x6b, 0x55,
  0x73, 0xef, 0x01, 0x08, 0x2b, 0x2c, 0x68, 0x5c, 0x5e, 0xf8, 0x4c, 0x4a,
  0x75, 0x46, 0xd5, 0x10, 0xec, 0xc5, 0x48, 0x13, 0x7f, 0x2a, 0xbd, 0xce,
  0x3c, 0xe8, 0xae, 0x32, 0x16, 0x0f, 0x4f, 0x12, 0x25, 0xb9, 0xf2, 0xf8,
  0x71, 0x32, 0xb7, 0x09, 0xfe, 0x25, 0xa4, 0x17, 0xe2, 0x33, 0xf2, 0x12,
  0x28, 0xb6, 0x0d, 0x73, 0x4f, 0x07, 0xfc, 0xb1, 0x29, 0x9f, 0x1d, 0xf4,
  0x55, 0xf8, 0xfd, 0x2f, 0x19, 0xe0, 0x69, 0x63, 0x3d, 0x27, 0x3f, 0x20,
  0x64, 0x47, 0xf7, 0x64, 0xef, 0xef, 0xfb, 0x23, 0x1d, 0x55, 0x46, 0x2f,
  0x00, 0xfe, 0x28, 0x27, 0x17, 0xdd, 0x08, 0x52, 0x18, 0x23, 0x1e, 0x2a,
  0xf1, 0xe6, 0x0e, 0x57, 0x48, 0xfe, 0xd7, 0xdc, 0x7f, 0xc5, 0xdb, 0xfe,
  0x4b, 0xfd, 0x06, 0xd9, 0x48, 0x9e, 0x20, 0xe5, 0xdd, 0xd3, 0x19, 0xb1,
  0xd6, 0xa5, 0xc0, 0x1b, 0xe9, 0x2d, 0x2e, 0x28, 0x21, 0x99, 0xdc, 0xf4,
  0xd6, 0x52, 0x89, 0xb9, 0x53, 0x81, 0x61, 0x39, 0x57, 0xad, 0x30, 0xc7,
  0xa4, 0xa5, 0x9c, 0x14, 0x2c, 0x67, 0xb0, 0xcb, 0xf2, 0xb0, 0x39, 0xdd,
  0x94, 0xe1, 0xae, 0x02, 0x50, 0x03, 0x40, 0xc0, 0x22, 0x8d, 0x2d, 0x6e,
  0x21, 0xcd, 0xc5, 0x40, 0x0f, 0x21, 0x49, 0x42, 0xcd, 0xa8, 0x50, 0x1d,
  0xb1, 0x62, 0x0a, 0x13, 0x36, 0x92, 0x95, 0x0c, 0x8e, 0xe5, 0x06, 0xab,
  0x8c, 0x4e, 0x14, 0x96, 0x60, 0x52, 0xf4, 0xa4, 0xdd, 0x9c, 0xf8, 0x4b,
  0x5b, 0x39, 0xc3, 0xd4, 0x01, 0x0a, 0x5d, 0xd8, 0x4b, 0x78, 0xab, 0x34,
  0x30, 0x4e, 0xc8, 0x1c, 0x7f, 0x13, 0x19, 0xcb, 0xfe, 0x19, 0x23, 0xee,
  0xd6, 0xea, 0x40, 0xd4, 0xe6, 0xe3, 0xa8, 0x0e, 0x70, 0x0f, 0xe2, 0x28,
  0x44, 0x0e, 0xf6, 0x50, 0xf6, 0x04, 0x49, 0x1b, 0x1a, 0x52, 0x42, 0xcc,
  0x3b, 0xe8, 0xfe, 0x5c, 0xe6, 0xd7, 0xd2, 0x05, 0x12, 0x7a, 0xe8, 0xe4,
  0x7a, 0x0d, 0xaf, 0x19, 0x6c, 0xde, 0xcd, 0x1c, 0x0c, 0xe1, 0xea, 0xf9,
  0xd6, 0x1a, 0x19, 0x3c, 0x89, 0x0e, 0xfa, 0xfc, 0xe9, 0x9f, 0x48, 0xc6,
  0xe2, 0xe5, 0xc0, 0xca, 0xd1, 0xbe, 0x38, 0x5e, 0xbb, 0x65, 0xe1, 0xd6,
  0xc7, 0x5c, 0x1a, 0x54, 0x1d, 0x55, 0xea, 0x41, 0x14, 0x1a, 0xcf, 0x2a,
  0xd9, 0xd5, 0x4a, 0xd7, 0xbe, 0x4a, 0x02, 0x29, 0xbf, 0xdd, 0x1e, 0xe2,
  0x8a, 0xca, 0x24, 0xd3, 0xba, 0xd5, 0x2f, 0x33, 0x27, 0xda, 0x36, 0xe9,
  0x81, 0x1b, 0xc4, 0x30, 0xd3, 0xe7, 0x16, 0x5f, 0xc6, 0x31, 0x48, 0x34,
  0xde, 0xfa, 0xff, 0xff, 0x04, 0x00, 0x00, 0x00, 0x20, 0x00, 0x00, 0x00,
  0x56, 0xfa, 0xff, 0xff, 0xd2, 0x11, 0x00, 0x00, 0x6d, 0xfd, 0xff, 0xff,
  0xa0, 0xee, 0xff, 0xff, 0x1e, 0xfa, 0xff, 0xff, 0x55, 0xfc, 0xff, 0xff,
  0xec, 0xef, 0xff, 0xff, 0xbf, 0x10, 0x00, 0x00, 0x0a, 0xfb, 0xff, 0xff,
  0x04, 0x00, 0x00, 0x00, 0x80, 0x04, 0x00, 0x00, 0x2b, 0x23, 0xf4, 0xda,
  0xa0, 0xb1, 0x13, 0x4e, 0xd7, 0x13, 0xfe, 0x86, 0x84, 0xe8, 0xc6, 0x0d,
  0x17, 0x12, 0xde, 0x9c, 0x94, 0x18, 0xbd, 0x3e, 0x0c, 0x65, 0xf5, 0x05,
  0xab, 0x38, 0xa0, 0x4b, 0xb3, 0xf2, 0x2c, 0x19, 0x2e, 0x3a, 0xec, 0xe8,
  0x18, 0x25, 0xe1, 0xf4, 0x3a, 0x47, 0x9f, 0x27, 0xc8, 0x6a, 0xef, 0xe0,
  0xc0, 0xb9, 0x00, 0xcd, 0xc6, 0x0d, 0xf9, 0x81, 0xd5, 0x31, 0x8c, 0xfd,
  0xc5, 0x02, 0xe9, 0xff, 0xef, 0x07, 0x93, 0x24, 0x58, 0x30, 0x4f, 0x5a,
  0x60, 0x08, 0x52, 0xb7, 0x5a, 0xfd, 0x53, 0x5a, 0x32, 0x30, 0x6b, 0x45,
  0x11, 0x2b, 0x3b, 0xfe, 0x3b, 0xcd, 0x4c, 0xf5, 0xea, 0xf0, 0x32, 0xd1,
  0xea, 0x51, 0x1f, 0x30, 0x20, 0x3e, 0x14, 0x19, 0xd7, 0xc8, 0x5f, 0x41,
  0xa7, 0xdd, 0xb9, 0x49, 0xa7, 0x5b, 0xd3, 0xe0, 0x25, 0xbd, 0x13, 0x72,
  0x34, 0x19, 0x4b, 0x46, 0x18, 0xcd, 0x2b, 0x7f, 0x43, 0xc2, 0xeb, 0xae,
  0x63, 0xe9, 0xa2, 0xff, 0xf5, 0xe0, 0x24, 0x18, 0x93, 0x16, 0x3b, 0x82,
  0x96, 0xff, 0x94, 0x0c, 0xaf, 0x62, 0xd1, 0x9f, 0x81, 0xbe, 0xb2, 0x61,
  0xcd, 0x5a, 0x13, 0xde, 0xe2, 0xd7, 0xa5, 0x43, 0xca, 0xfe, 0x0a, 0xcc,
  0xb7, 0xb9, 0xad, 0xfd, 0xdc, 0x21, 0xf5, 0xd0, 0x27, 0xb8, 0xa1, 0x21,
  0x1c, 0x08, 0xc1, 0x08, 0xd6, 0xb6, 0xb8, 0x1b, 0xa6, 0xf0, 0xe9, 0x9e,
  0xa5, 0xd9, 0xed, 0x1c, 0xb5, 0xf0, 0xc0, 0xb9, 0x06, 0xc4, 0xb9, 0x20,
  0xb8, 0x4c, 0x02, 0x16, 0xbf, 0x44, 0x0c, 0x33, 0x1e, 0x8a, 0x5e, 0xe8,
  0xe5, 0xd9, 0x85, 0xc6, 0xe0, 0xd1, 0xb0, 0xa8, 0x89, 0xf2, 0x97, 0xb4,
  0xe2, 0xeb, 0x40, 0xdd, 0xf3, 0x79, 0x18, 0x33, 0x34, 0x3e, 0xa9, 0x07,
  0xd0, 0x7f, 0xf7, 0xbf, 0x09, 0x3c, 0xe4, 0x67, 0x2e, 0xda, 0x14, 0xa1,
  0xab, 0x17, 0xf6, 0x5e, 0x6e, 0x00, 0x58, 0x8c, 0x27, 0xad, 0xe4, 0x61,
  0x07, 0x2d, 0xa1, 0x34, 0xc3, 0x83, 0x26, 0x8e, 0x00, 0x34, 0xd4, 0x87,
  0xed, 0x99, 0xbf, 0xb6, 0x46, 0xbc, 0x8b, 0x9b, 0xe6, 0x41, 0x37, 0x9a,
  0x8f, 0x48, 0x0c, 0x44, 0x26, 0x4a, 0x40, 0x81, 0x0a, 0x4a, 0x0b, 0x0b,
  0x37, 0x06, 0xf4, 0xed, 0xd1, 0xe3, 0x08, 0x10, 0x20, 0xe8, 0xbe, 0x32,
  0x15, 0xe3, 0xad, 0xd0, 0x47, 0x50, 0x45, 0x37, 0xda, 0x4a, 0xc9, 0x5c,
  0xf1, 0xe7, 0xfb, 0x3c, 0x14, 0xd8, 0xbc, 0xfd, 0x14, 0xf2, 0x44, 0x87,
  0xdc, 0x37, 0xd6, 0xf5, 0xc2, 0x3d, 0xc7, 0xba, 0xd8, 0xd4, 0x81, 0x49,
  0x28, 0xf8, 0xe3, 0xee, 0xe1, 0xc1, 0xb9, 0xde, 0x9b, 0x2c, 0x98, 0x92,
  0xf8, 0xba, 0x84, 0xb9, 0x95, 0xc0, 0xa7, 0x1a, 0xd4, 0x81, 0xab, 0xdf,
  0x63, 0xb8, 0x61, 0xcf, 0x1e, 0xc8, 0x21, 0x23, 0x08, 0xc0, 0x32, 0x04,
  0x36, 0x3f, 0xa3, 0xce, 0xe4, 0x84, 0xc2, 0x00, 0xba, 0xe4, 0x0c, 0x8f,
  0x69, 0x1b, 0x95, 0x6d, 0xc8, 0x65, 0x9c, 0x2c, 0xd6, 0xb9, 0x0e, 0x6c,
  0x3d, 0x99, 0x9c, 0x14, 0x5d, 0x53, 0xf2, 0xa5, 0x3c, 0x36, 0xa6, 0xad,
  0xbc, 0x88, 0x8c, 0x50, 0x5b, 0x14, 0x20, 0x28, 0xb7, 0x4f, 0x3a, 0x04,
  0xb0, 0xe4, 0xc9, 0x19, 0xe6, 0x5a, 0x0b, 0x9a, 0xe9, 0xe1, 0xc8, 0xf8,
  0x0e, 0x06, 0x0a, 0x02, 0xf8, 0xd5, 0xdc, 0x5e, 0x24, 0xf5, 0xf0, 0xbf,
  0x15, 0xf5, 0x0a, 0x22, 0xd7, 0x58, 0x48, 0xb6, 0x3f, 0x2d, 0xcb, 0x55,
  0xc7, 0xe3, 0xbc, 0x05, 0xc4, 0xc3, 0xb7, 0x37, 0xe0, 0xf9, 0x1d, 0xb3,
  0xda, 0x25, 0x11, 0x64, 0xb0, 0x54, 0x03, 0xa1, 0xf3, 0x10, 0x81, 0xdc,
  0xbf, 0x13, 0xcb, 0xc3, 0xb6, 0xd0, 0xbe, 0x3e, 0x8e, 0x63, 0xbb, 0xea,
  0xf0, 0x48, 0xea, 0xd1, 0x92, 0xd0, 0x90, 0xab, 0xbe, 0xeb, 0xda, 0xf5,
  0x2e, 0x6e, 0xb5, 0xed, 0xa8, 0xe0, 0x27, 0x64, 0xbc, 0xe4, 0x23, 0xfa,
  0x94, 0xc5, 0xc5, 0xd7, 0xe5, 0x1d, 0xcf, 0x9b, 0x2f, 0x3f, 0xcf, 0xe5,
  0xdd, 0x5e, 0x1f, 0xb8, 0x06, 0xf4, 0xcf, 0xef, 0xdf, 0x24, 0x13, 0xf9,
  0x81, 0x21, 0xea, 0x22, 0xb3, 0x56, 0xc5, 0xc6, 0xf0, 0x1d, 0xf6, 0x71,
  0xdb, 0xf9, 0x34, 0x04, 0x17, 0xd0, 0x14, 0xdc, 0x8e, 0x82, 0xc4, 0x0d,
  0xcb, 0xfd, 0x10, 0xb8, 0x08, 0x94, 0xdc, 0x51, 0x18, 0x4f, 0x49, 0xc8,
  0x63, 0x25, 0x1e, 0xb5, 0x68, 0xcf, 0x3c, 0x38, 0xcf, 0x5d, 0x31, 0xb3,
  0x1f, 0x8c, 0x11, 0x68, 0x47, 0xb5, 0x68, 0xea, 0x50, 0x9b, 0x49, 0x88,
  0x9d, 0x5e, 0xd1, 0x98, 0xee, 0x6f, 0x72, 0xf4, 0xa5, 0xde, 0x59, 0xac,
  0x7b, 0xc6, 0xc4, 0x87, 0xe3, 0x07, 0x6e, 0x22, 0x35, 0x44, 0x7f, 0x1b,
  0xd0, 0xca, 0xf2, 0xbd, 0x89, 0x47, 0x4b, 0xc0, 0x1a, 0x26, 0xfc, 0xc3,
  0xec, 0xff, 0xbe, 0xff, 0xfc, 0x5b, 0x3c, 0x00, 0xdf, 0x0c, 0xf0, 0xf9,
  0x0f, 0x59, 0xd0, 0xf2, 0x05, 0x14, 0xd9, 0x25, 0x48, 0x55, 0xe8, 0xa2,
  0x3a, 0x42, 0xed, 0x65, 0x00, 0x03, 0x26, 0xc8, 0xe3, 0x0b, 0xc2, 0xcf,
  0xf2, 0x44, 0xcb, 0x26, 0x41, 0xed, 0xce, 0x3f, 0x99, 0x15, 0x38, 0xba,
  0xa3, 0x2c, 0x9f, 0x55, 0xf2, 0x1a, 0xc4, 0x9a, 0x8c, 0xb2, 0xe5, 0x18,
  0x15, 0x23, 0x26, 0x9e, 0x81, 0x2a, 0xf5, 0x58, 0x5c, 0x03, 0xeb, 0x0c,
  0x36, 0x1d, 0x6c, 0xe1, 0xee, 0x45, 0x3f, 0x00, 0xf4, 0xed, 0xdd, 0x28,
  0x08, 0xca, 0xd5, 0x0c, 0x5d, 0x2a, 0xec, 0xad, 0x04, 0xe3, 0xeb, 0x35,
  0x44, 0xc2, 0x7f, 0xe8, 0x35, 0x3e, 0xd3, 0xf6, 0x07, 0xf2, 0xe5, 0xeb,
  0x02, 0x13, 0x5e, 0x53, 0x3a, 0x3f, 0xdc, 0x26, 0xe4, 0x18, 0x65, 0x2b,
  0x68, 0x04, 0xe6, 0x12, 0x55, 0xbe, 0xc8, 0x0f, 0x27, 0x2e, 0x0f, 0x53,
  0x59, 0x21, 0x20, 0x1f, 0x29, 0xf9, 0x29, 0xef, 0x8e, 0xf9, 0x2a, 0xb2,
  0xd7, 0x0f, 0x94, 0x29, 0xb0, 0xd5, 0x4c, 0x8c, 0x82, 0xc4, 0x93, 0x34,
  0x02, 0x59, 0xfc, 0x81, 0xb7, 0x01, 0x9c, 0x1f, 0x43, 0x39, 0x2f, 0x15,
  0xb9, 0x45, 0xe9, 0x0e, 0x1d, 0xd8, 0x38, 0x25, 0x41, 0x42, 0xf6, 0x5b,
  0xf8, 0x06, 0x33, 0x47, 0x17, 0xea, 0x2b, 0x52, 0xdb, 0x5d, 0xc5, 0xb2,
  0x8b, 0x1e, 0xad, 0xfa, 0xde, 0xd6, 0xc6, 0x97, 0xa3, 0xf1, 0xbb, 0xeb,
  0x0b, 0xfa, 0xda, 0x8e, 0xe7, 0xb4, 0xa5, 0x20, 0x39, 0xf8, 0x6b, 0x65,
  0xed, 0xb1, 0xab, 0xc8, 0x98, 0xe0, 0xe5, 0x89, 0x07, 0xc3, 0x1e, 0xbb,
  0xd1, 0xd0, 0xe7, 0x5a, 0x6b, 0x9d, 0xf6, 0x99, 0xb2, 0xb7, 0xdf, 0xcb,
  0xf4, 0xfb, 0xfc, 0x2d, 0xf0, 0x02, 0xac, 0x8c, 0xca, 0x53, 0xc8, 0xce,
  0x2f, 0x39, 0x07, 0x18, 0x36, 0xf6, 0x9a, 0x26, 0x8a, 0x15, 0xe3, 0xb4,
  0x30, 0xfc, 0x77, 0xce, 0xc9, 0xa4, 0xfe, 0x22, 0xa6, 0x64, 0x81, 0xbf,
  0xba, 0xc6, 0xe6, 0x68, 0x45, 0xc9, 0xdf, 0x71, 0x3a, 0x48, 0x3d, 0x67,
  0x61, 0x53, 0x35, 0x2b, 0x05, 0x08, 0x24, 0x40, 0x2f, 0xd3, 0xb0, 0x94,
  0x09, 0x4a, 0xa5, 0xcf, 0xbf, 0xb8, 0xfe, 0x1f, 0x10, 0x89, 0x4c, 0xf0,
  0x34, 0xf6, 0x7f, 0xbe, 0x29, 0xfe, 0xcf, 0x08, 0xb5, 0xff, 0x6b, 0x0c,
  0x45, 0xe3, 0x49, 0xf7, 0xf2, 0x17, 0x62, 0xb3, 0x47, 0xba, 0x34, 0xc3,
  0xe0, 0xc8, 0x49, 0xb9, 0x1f, 0xb4, 0xe9, 0x49, 0xc0, 0xf5, 0x30, 0x58,
  0xe1, 0xa6, 0x2d, 0x2e, 0xc3, 0x09, 0xba, 0x25, 0xfa, 0x24, 0x24, 0x27,
  0x4f, 0xef, 0x54, 0xd0, 0x28, 0xf7, 0xd4, 0xf9, 0x6b, 0xc5, 0xf2, 0x12,
  0x0b, 0x12, 0xc5, 0x29, 0x5d, 0x0a, 0x61, 0xd6, 0x35, 0xe3, 0xdf, 0x08,
  0x59, 0x1b, 0x0f, 0xb4, 0x14, 0x16, 0x2e, 0x7f, 0x36, 0xfd, 0x12, 0x22,
  0xb3, 0xe1, 0x19, 0x3b, 0x23, 0xf6, 0x39, 0xd1, 0x66, 0x3a, 0x33, 0x5a,
  0x50, 0xf0, 0xfe, 0xfc, 0xf1, 0x03, 0xce, 0x76, 0x3f, 0x42, 0x6d, 0x23,
  0x03, 0x20, 0x27, 0x15, 0xed, 0xc7, 0x14, 0x40, 0x54, 0xe3, 0xdb, 0x7f,
  0xfd, 0x38, 0x36, 0xf0, 0x4f, 0xf9, 0xd7, 0x3a, 0x60, 0x04, 0x11, 0x21,
  0xcc, 0x06, 0xe7, 0x4a, 0x6b, 0xfa, 0x29, 0x1d, 0xdc, 0x1a, 0xd2, 0x08,
  0x4b, 0xba, 0x4b, 0x22, 0xc6, 0xbb, 0x4d, 0x58, 0xf5, 0xdc, 0x44, 0xcf,
  0xa8, 0x42, 0xd9, 0xc7, 0x25, 0xed, 0x16, 0xef, 0x0a, 0x32, 0xd6, 0xfb,
  0x47, 0x14, 0x3f, 0x19, 0x40, 0x01, 0xb9, 0xe3, 0xf7, 0xd2, 0x07, 0xcd,
  0x3e, 0xd6, 0xca, 0x0c, 0x49, 0x1b, 0x54, 0x24, 0x96, 0xff, 0xff, 0xff,
  0x04, 0x00, 0x00, 0x00, 0x40, 0x00, 0x00, 0x00, 0x90, 0x0e, 0x00, 0x00,
  0x53, 0xf6, 0xff, 0xff, 0xdc, 0x0e, 0x00, 0x00, 0x87, 0xfd, 0xff, 0xff,
  0xab, 0x0f, 0x00, 0x00, 0x2b, 0xfb, 0xff, 0xff, 0x18, 0x0e, 0x00, 0x00,
  0x82, 0x17, 0x00, 0x00, 0x78, 0xfd, 0xff, 0xff, 0xe9, 0x0d, 0x00, 0x00,
  0x61, 0xe7, 0xff, 0xff, 0xec, 0x0e, 0x00, 0x00, 0x7c, 0x06, 0x00, 0x00,
  0x44, 0xf9, 0xff, 0xff, 0x26, 0xed, 0xff, 0xff, 0x82, 0xf7, 0xff, 0xff,
  0xe2, 0xff, 0xff, 0xff, 0x04, 0x00, 0x00, 0x00, 0x10, 0x00, 0x00, 0x00,
  0x91, 0x7f, 0xd4, 0x6c, 0xd5, 0x15, 0xad, 0xde, 0x22, 0xb0, 0x4b, 0x95,
  0xea, 0x4c, 0x4d, 0x2c, 0x00, 0x00, 0x06, 0x00, 0x08, 0x00, 0x04, 0x00,
  0x06, 0x00, 0x00, 0x00, 0x04, 0x00, 0x00, 0x00, 0x04, 0x00, 0x00, 0x00,
  0xd4, 0xfa, 0xff, 0xff, 0xfc, 0xff, 0xff, 0xff, 0x04, 0x00, 0x04, 0x00,
  0x04, 0x00, 0x00, 0x00, 0x0f, 0x00, 0x00, 0x00, 0x4d, 0x4c, 0x49, 0x52,
  0x20, 0x43, 0x6f, 0x6e, 0x76, 0x65, 0x72, 0x74, 0x65, 0x64, 0x2e, 0x00,
  0x01, 0x00, 0x00, 0x00, 0x14, 0x00, 0x00, 0x00, 0x00, 0x00, 0x0e, 0x00,
  0x18, 0x00, 0x14, 0x00, 0x10, 0x00, 0x0c, 0x00, 0x08, 0x00, 0x04, 0x00,
  0x0e, 0x00, 0x00, 0x00, 0x14, 0x00, 0x00, 0x00, 0x1c, 0x00, 0x00, 0x00,
  0x74, 0x01, 0x00, 0x00, 0x78, 0x01, 0x00, 0x00, 0x7c, 0x01, 0x00, 0x00,
  0x04, 0x00, 0x00, 0x00, 0x6d, 0x61, 0x69, 0x6e, 0x00, 0x00, 0x00, 0x00,
  0x05, 0x00, 0x00, 0x00, 0x10, 0x01, 0x00, 0x00, 0xc0, 0x00, 0x00, 0x00,
  0x80, 0x00, 0x00, 0x00, 0x34, 0x00, 0x00, 0x00, 0x10, 0x00, 0x00, 0x00,
  0x00, 0x00, 0x0a, 0x00, 0x10, 0x00, 0x0c, 0x00, 0x08, 0x00, 0x04, 0x00,
  0x0a, 0x00, 0x00, 0x00, 0x0c, 0x00, 0x00, 0x00, 0x10, 0x00, 0x00, 0x00,
  0x01, 0x00, 0x00, 0x00, 0x01, 0x00, 0x00, 0x00, 0x0d, 0x00, 0x00, 0x00,
  0x01, 0x00, 0x00, 0x00, 0x0c, 0x00, 0x00, 0x00, 0x3e, 0xff, 0xff, 0xff,
  0x1c, 0x00, 0x00, 0x00, 0x00, 0x00, 0x00, 0x01, 0x24, 0x00, 0x00, 0x00,
  0x28, 0x00, 0x00, 0x00, 0x00, 0x00, 0x0a, 0x00, 0x10, 0x00, 0x0f, 0x00,
  0x08, 0x00, 0x04, 0x00, 0x0a, 0x00, 0x00, 0x00, 0x01, 0x00, 0x00, 0x00,
  0x01, 0x00, 0x00, 0x00, 0x00, 0x00, 0x00, 0x01, 0x01, 0x00, 0x00, 0x00,
  0x0c, 0x00, 0x00, 0x00, 0x03, 0x00, 0x00, 0x00, 0x0b, 0x00, 0x00, 0x00,
  0x02, 0x00, 0x00, 0x00, 0x01, 0x00, 0x00, 0x00, 0x86, 0xff, 0xff, 0xff,
  0x10, 0x00, 0x00, 0x00, 0x00, 0x00, 0x00, 0x01, 0x18, 0x00, 0x00, 0x00,
  0x1c, 0x00, 0x00, 0x00, 0x78, 0xff, 0xff, 0xff, 0x00, 0x00, 0x00, 0x01,
  0x02, 0x00, 0x00, 0x00, 0x02, 0x00, 0x00, 0x00, 0x01, 0x00, 0x00, 0x00,
  0x0b, 0x00, 0x00, 0x00, 0x03, 0x00, 0x00, 0x00, 0x0a, 0x00, 0x00, 0x00,
  0x04, 0x00, 0x00, 0x00, 0x03, 0x00, 0x00, 0x00, 0xc2, 0xff, 0xff, 0xff,
  0x10, 0x00, 0x00, 0x00, 0x00, 0x00, 0x00, 0x01, 0x18, 0x00, 0x00, 0x00,
  0x1c, 0x00, 0x00, 0x00, 0xb4, 0xff, 0xff, 0xff, 0x00, 0x00, 0x00, 0x01,
  0x02, 0x00, 0x00, 0x00, 0x02, 0x00, 0x00, 0x00, 0x01, 0x00, 0x00, 0x00,
  0x0a, 0x00, 0x00, 0x00, 0x03, 0x00, 0x00, 0x00, 0x09, 0x00, 0x00, 0x00,
  0x06, 0x00, 0x00, 0x00, 0x05, 0x00, 0x00, 0x00, 0x00, 0x00, 0x0e, 0x00,
  0x14, 0x00, 0x00, 0x00, 0x10, 0x00, 0x0c, 0x00, 0x0b, 0x00, 0x04, 0x00,
  0x0e, 0x00, 0x00, 0x00, 0x1c, 0x00, 0x00, 0x00, 0x00, 0x00, 0x00, 0x01,
  0x24, 0x00, 0x00, 0x00, 0x28, 0x00, 0x00, 0x00, 0x0c, 0x00, 0x10, 0x00,
  0x00, 0x00, 0x0c, 0x00, 0x08, 0x00, 0x07, 0x00, 0x0c, 0x00, 0x00, 0x00,
  0x00, 0x00, 0x00, 0x01, 0x02, 0x00, 0x00, 0x00, 0x02, 0x00, 0x00, 0x00,
  0x01, 0x00, 0x00, 0x00, 0x09, 0x00, 0x00, 0x00, 0x03, 0x00, 0x00, 0x00,
  0x00, 0x00, 0x00, 0x00, 0x08, 0x00, 0x00, 0x00, 0x07, 0x00, 0x00, 0x00,
  0x01, 0x00, 0x00, 0x00, 0x0d, 0x00, 0x00, 0x00, 0x01, 0x00, 0x00, 0x00,
  0x00, 0x00, 0x00, 0x00, 0x0e, 0x00, 0x00, 0x00, 0xc4, 0x0a, 0x00, 0x00,
  0x34, 0x0a, 0x00, 0x00, 0xa8, 0x09, 0x00, 0x00, 0x7c, 0x08, 0x00, 0x00,
  0x50, 0x07, 0x00, 0x00, 0x84, 0x06, 0x00, 0x00, 0xb8, 0x05, 0x00, 0x00,
  0xec, 0x04, 0x00, 0x00, 0x20, 0x04, 0x00, 0x00, 0x24, 0x03, 0x00, 0x00,
  0x40, 0x02, 0x00, 0x00, 0x5c, 0x01, 0x00, 0x00, 0x90, 0x00, 0x00, 0x00,
  0x04, 0x00, 0x00, 0x00, 0x8a, 0xf5, 0xff, 0xff, 0x00, 0x00, 0x00, 0x01,
  0x18, 0x00, 0x00, 0x00, 0x28, 0x00, 0x00, 0x00, 0x44, 0x00, 0x00, 0x00,
  0x0e, 0x00, 0x00, 0x00, 0x00, 0x00, 0x00, 0x09, 0x58, 0x00, 0x00, 0x00,
  0x04, 0x00, 0x00, 0x00, 0xff, 0xff, 0xff, 0xff, 0x0c, 0x00, 0x00, 0x00,
  0x0c, 0x00, 0x00, 0x00, 0x01, 0x00, 0x00, 0x00, 0x74, 0xf5, 0xff, 0xff,
  0x08, 0x00, 0x00, 0x00, 0x10, 0x00, 0x00, 0x00, 0x01, 0x00, 0x00, 0x00,
  0x80, 0xff, 0xff, 0xff, 0xff, 0xff, 0xff, 0xff, 0x01, 0x00, 0x00, 0x00,
  0x00, 0x00, 0x80, 0x3b, 0x19, 0x00, 0x00, 0x00, 0x53, 0x74, 0x61, 0x74,
  0x65, 0x66, 0x75, 0x6c, 0x50, 0x61, 0x72, 0x74, 0x69, 0x74, 0x69, 0x6f,
  0x6e, 0x65, 0x64, 0x43, 0x61, 0x6c, 0x6c, 0x3a, 0x30, 0x00, 0x00, 0x00,
  0x04, 0x00, 0x00, 0x00, 0x01, 0x00, 0x00, 0x00, 0x0c, 0x00, 0x00, 0x00,
  0x0c, 0x00, 0x00, 0x00, 0x01, 0x00, 0x00, 0x00, 0x12, 0xf6, 0xff, 0xff,
  0x00, 0x00, 0x00, 0x01, 0x18, 0x00, 0x00, 0x00, 0x28, 0x00, 0x00, 0x00,
  0x44, 0x00, 0x00, 0x00, 0x0d, 0x00, 0x00, 0x00, 0x00, 0x00, 0x00, 0x09,
  0x98, 0x00, 0x00, 0x00, 0x04, 0x00, 0x00, 0x00, 0xff, 0xff, 0xff, 0xff,
  0x0c, 0x00, 0x00, 0x00, 0x0c, 0x00, 0x00, 0x00, 0x01, 0x00, 0x00, 0x00,
  0xfc, 0xf5, 0xff, 0xff, 0x08, 0x00, 0x00, 0x00, 0x10, 0x00, 0x00, 0x00,
  0x01, 0x00, 0x00, 0x00, 0x03, 0x00, 0x00, 0x00, 0x00, 0x00, 0x00, 0x00,
  0x01, 0x00, 0x00, 0x00, 0x6a, 0xd4, 0xac, 0x3c, 0x5b, 0x00, 0x00, 0x00,
  0x6d, 0x6f, 0x64, 0x65, 0x6c, 0x5f, 0x36, 0x2f, 0x63, 0x6f, 0x6e, 0x76,
  0x32, 0x64, 0x5f, 0x32, 0x33, 0x2f, 0x42, 0x69, 0x61, 0x73, 0x41, 0x64,
  0x64, 0x3b, 0x6d, 0x6f, 0x64, 0x65, 0x6c, 0x5f, 0x36, 0x2f, 0x63, 0x6f,
  0x6e, 0x76, 0x32, 0x64, 0x5f, 0x32, 0x33, 0x2f, 0x43, 0x6f, 0x6e, 0x76,
  0x32, 0x44, 0x3b, 0x6d, 0x6f, 0x64, 0x65, 0x6c, 0x5f, 0x36, 0x2f, 0x63,
  0x6f, 0x6e, 0x76, 0x32, 0x64, 0x5f, 0x32, 0x33, 0x2f, 0x42, 0x69, 0x61,
  0x73, 0x41, 0x64, 0x64, 0x2f, 0x52, 0x65, 0x61, 0x64, 0x56, 0x61, 0x72,
  0x69, 0x61, 0x62, 0x6c, 0x65, 0x4f, 0x70, 0x00, 0x04, 0x00, 0x00, 0x00,
  0x01, 0x00, 0x00, 0x00, 0x0c, 0x00, 0x00, 0x00, 0x0c, 0x00, 0x00, 0x00,
  0x01, 0x00, 0x00, 0x00, 0xda, 0xf6, 0xff, 0xff, 0x00, 0x00, 0x00, 0x01,
  0x18, 0x00, 0x00, 0x00, 0x28, 0x00, 0x00, 0x00, 0x44, 0x00, 0x00, 0x00,
  0x0c, 0x00, 0x00, 0x00, 0x00, 0x00, 0x00, 0x09, 0xb0, 0x00, 0x00, 0x00,
  0x04, 0x00, 0x00, 0x00, 0xff, 0xff, 0xff, 0xff, 0x0c, 0x00, 0x00, 0x00,
  0x0c, 0x00, 0x00, 0x00, 0x10, 0x00, 0x00, 0x00, 0xc4, 0xf6, 0xff, 0xff,
  0x08, 0x00, 0x00, 0x00, 0x10, 0x00, 0x00, 0x00, 0x01, 0x00, 0x00, 0x00,
  0x80, 0xff, 0xff, 0xff, 0xff, 0xff, 0xff, 0xff, 0x01, 0x00, 0x00, 0x00,
  0x1c, 0x01, 0x07, 0x3c, 0x72, 0x00, 0x00, 0x00, 0x6d, 0x6f, 0x64, 0x65,
  0x6c, 0x5f, 0x36, 0x2f, 0x63, 0x6f, 0x6e, 0x76, 0x32, 0x64, 0x5f, 0x32,
  0x32, 0x2f, 0x52, 0x65, 0x6c, 0x75, 0x3b, 0x6d, 0x6f, 0x64, 0x65, 0x6c,
  0x5f, 0x36, 0x2f, 0x63, 0x6f, 0x6e, 0x76, 0x32, 0x64, 0x5f, 0x32, 0x32,
  0x2f, 0x42, 0x69, 0x61, 0x73, 0x41, 0x64, 0x64, 0x3b, 0x6d, 0x6f, 0x64,
  0x65, 0x6c, 0x5f, 0x36, 0x2f, 0x63, 0x6f, 0x6e, 0x76, 0x32, 0x64, 0x5f,
  0x32, 0x32, 0x2f, 0x43, 0x6f, 0x6e, 0x76, 0x32, 0x44, 0x3b, 0x6d, 0x6f,
  0x64, 0x65, 0x6c, 0x5f, 0x36, 0x2f, 0x63, 0x6f, 0x6e, 0x76, 0x32, 0x64,
  0x5f, 0x32, 0x32, 0x2f, 0x42, 0x69, 0x61, 0x73, 0x41, 0x64, 0x64, 0x2f,
  0x52, 0x65, 0x61, 0x64, 0x56, 0x61, 0x72, 0x69, 0x61, 0x62, 0x6c, 0x65,
  0x4f, 0x70, 0x00, 0x00, 0x04, 0x00, 0x00, 0x00, 0x01, 0x00, 0x00, 0x00,
  0x0c, 0x00, 0x00, 0x00, 0x0c, 0x00, 0x00, 0x00, 0x10, 0x00, 0x00, 0x00,
  0xba, 0xf7, 0xff, 0xff, 0x00, 0x00, 0x00, 0x01, 0x18, 0x00, 0x00, 0x00,
  0x28, 0x00, 0x00, 0x00, 0x44, 0x00, 0x00, 0x00, 0x0b, 0x00, 0x00, 0x00,
  0x00, 0x00, 0x00, 0x09, 0xb0, 0x00, 0x00, 0x00, 0x04, 0x00, 0x00, 0x00,
  0xff, 0xff, 0xff, 0xff, 0x18, 0x00, 0x00, 0x00, 0x18, 0x00, 0x00, 0x00,
  0x08, 0x00, 0x00, 0x00, 0xa4, 0xf7, 0xff, 0xff, 0x08, 0x00, 0x00, 0x00,
  0x10, 0x00, 0x00, 0x00, 0x01, 0x00, 0x00, 0x00, 0x80, 0xff, 0xff, 0xff,
  0xff, 0xff, 0xff, 0xff, 0x01, 0x00, 0x00, 0x00, 0x4b, 0x1b, 0xef, 0x3b,
  0x72, 0x00, 0x00, 0x00, 0x6d, 0x6f, 0x64, 0x65, 0x6c, 0x5f, 0x36, 0x2f,
  0x63, 0x6f, 0x6e, 0x76, 0x32, 0x64, 0x5f, 0x32, 0x31, 0x2f, 0x52, 0x65,
  0x6c, 0x75, 0x3b, 0x6d, 0x6f, 0x64, 0x65, 0x6c, 0x5f, 0x36, 0x2f, 0x63,
  0x6f, 0x6e, 0x76, 0x32, 0x64, 0x5f, 0x32, 0x31, 0x2f, 0x42, 0x69, 0x61,
  0x73, 0x41, 0x64, 0x64, 0x3b, 0x6d, 0x6f, 0x64, 0x65, 0x6c, 0x5f, 0x36,
  0x2f, 0x63, 0x6f, 0x6e, 0x76, 0x32, 0x64, 0x5f, 0x32, 0x31, 0x2f, 0x43,
  0x6f, 0x6e, 0x76, 0x32, 0x44, 0x3b, 0x6d, 0x6f, 0x64, 0x65, 0x6c, 0x5f,
  0x36, 0x2f, 0x63, 0x6f, 0x6e, 0x76, 0x32, 0x64, 0x5f, 0x32, 0x31, 0x2f,
  0x42, 0x69, 0x61, 0x73, 0x41, 0x64, 0x64, 0x2f, 0x52, 0x65, 0x61, 0x64,
  0x56, 0x61, 0x72, 0x69, 0x61, 0x62, 0x6c, 0x65, 0x4f, 0x70, 0x00, 0x00,
  0x04, 0x00, 0x00, 0x00, 0x01, 0x00, 0x00, 0x00, 0x18, 0x00, 0x00, 0x00,
  0x18, 0x00, 0x00, 0x00, 0x08, 0x00, 0x00, 0x00, 0x9a, 0xf8, 0xff, 0xff,
  0x00, 0x00, 0x00, 0x01, 0x18, 0x00, 0x00, 0x00, 0x28, 0x00, 0x00, 0x00,
  0x44, 0x00, 0x00, 0x00, 0x0a, 0x00, 0x00, 0x00, 0x00, 0x00, 0x00, 0x09,
  0xc8, 0x00, 0x00, 0x00, 0x04, 0x00, 0x00, 0x00, 0xff, 0xff, 0xff, 0xff,
  0x30, 0x00, 0x00, 0x00, 0x30, 0x00, 0x00, 0x00, 0x08, 0x00, 0x00, 0x00,
  0x84, 0xf8, 0xff, 0xff, 0x08, 0x00, 0x00, 0x00, 0x10, 0x00, 0x00, 0x00,
  0x01, 0x00, 0x00, 0x00, 0x80, 0xff, 0xff, 0xff, 0xff, 0xff, 0xff, 0xff,
  0x01, 0x00, 0x00, 0x00, 0xc3, 0x93, 0xce, 0x3b, 0x8b, 0x00, 0x00, 0x00,
  0x6d, 0x6f, 0x64, 0x65, 0x6c, 0x5f, 0x36, 0x2f, 0x63, 0x6f, 0x6e, 0x76,
  0x32, 0x64, 0x5f, 0x32, 0x30, 0x2f, 0x52, 0x65, 0x6c, 0x75, 0x3b, 0x6d,
  0x6f, 0x64, 0x65, 0x6c, 0x5f, 0x36, 0x2f, 0x63, 0x6f, 0x6e, 0x76, 0x32,
  0x64, 0x5f, 0x32, 0x30, 0x2f, 0x42, 0x69, 0x61, 0x73, 0x41, 0x64, 0x64,
  0x3b, 0x6d, 0x6f, 0x64, 0x65, 0x6c, 0x5f, 0x36, 0x2f, 0x63, 0x6f, 0x6e,
  0x76, 0x32, 0x64, 0x5f, 0x32, 0x31, 0x2f, 0x43, 0x6f, 0x6e, 0x76, 0x32,
  0x44, 0x3b, 0x6d, 0x6f, 0x64, 0x65, 0x6c, 0x5f, 0x36, 0x2f, 0x63, 0x6f,
  0x6e, 0x76, 0x32, 0x64, 0x5f, 0x32, 0x30, 0x2f, 0x43, 0x6f, 0x6e, 0x76,
  0x32, 0x44, 0x3b, 0x6d, 0x6f, 0x64, 0x65, 0x6c, 0x5f, 0x36, 0x2f, 0x63,
  0x6f, 0x6e, 0x76, 0x32, 0x64, 0x5f, 0x32, 0x30, 0x2f, 0x42, 0x69, 0x61,
  0x73, 0x41, 0x64, 0x64, 0x2f, 0x52, 0x65, 0x61, 0x64, 0x56, 0x61, 0x72,
  0x69, 0x61, 0x62, 0x6c, 0x65, 0x4f, 0x70, 0x00, 0x04, 0x00, 0x00, 0x00,
  0x01, 0x00, 0x00, 0x00, 0x30, 0x00, 0x00, 0x00, 0x30, 0x00, 0x00, 0x00,
  0x08, 0x00, 0x00, 0x00, 0x1e, 0xfa, 0xff, 0xff, 0x00, 0x00, 0x00, 0x01,
  0x14, 0x00, 0x00, 0x00, 0x88, 0x00, 0x00, 0x00, 0x09, 0x00, 0x00, 0x00,
  0x00, 0x00, 0x00, 0x09, 0x9c, 0x00, 0x00, 0x00, 0x64, 0xf9, 0xff, 0xff,
  0x08, 0x00, 0x00, 0x00, 0x4c, 0x00, 0x00, 0x00, 0x08, 0x00, 0x00, 0x00,
  0x00, 0x00, 0x00, 0x00, 0x00, 0x00, 0x00, 0x00, 0x00, 0x00, 0x00, 0x00,
  0x00, 0x00, 0x00, 0x00, 0x00, 0x00, 0x00, 0x00, 0x00, 0x00, 0x00, 0x00,
  0x00, 0x00, 0x00, 0x00, 0x00, 0x00, 0x00, 0x00, 0x00, 0x00, 0x00, 0x00,
  0x00, 0x00, 0x00, 0x00, 0x00, 0x00, 0x00, 0x00, 0x00, 0x00, 0x00, 0x00,
  0x00, 0x00, 0x00, 0x00, 0x00, 0x00, 0x00, 0x00, 0x00, 0x00, 0x00, 0x00,
  0x00, 0x00, 0x00, 0x00, 0x00, 0x00, 0x00, 0x00, 0x08, 0x00, 0x00, 0x00,
  0x67, 0xee, 0x49, 0x3b, 0x17, 0xbb, 0x2c, 0x3b, 0x6d, 0x48, 0x18, 0x3b,
  0xbc, 0x4d, 0x24, 0x3b, 0x77, 0xa9, 0x2a, 0x3b, 0x42, 0xaa, 0x25, 0x3b,
  0xf5, 0xa0, 0x07, 0x3b, 0x4b, 0xe9, 0x09, 0x3b, 0x18, 0x00, 0x00, 0x00,
  0x6d, 0x6f, 0x64, 0x65, 0x6c, 0x5f, 0x36, 0x2f, 0x63, 0x6f, 0x6e, 0x76,
  0x32, 0x64, 0x5f, 0x32, 0x30, 0x2f, 0x43, 0x6f, 0x6e, 0x76, 0x32, 0x44,
  0x00, 0x00, 0x00, 0x00, 0x04, 0x00, 0x00, 0x00, 0x08, 0x00, 0x00, 0x00,
  0x03, 0x00, 0x00, 0x00, 0x03, 0x00, 0x00, 0x00, 0x01, 0x00, 0x00, 0x00,
  0xe6, 0xfa, 0xff, 0xff, 0x00, 0x00, 0x00, 0x01, 0x14, 0x00, 0x00, 0x00,
  0x84, 0x00, 0x00, 0x00, 0x08, 0x00, 0x00, 0x00, 0x00, 0x00, 0x00, 0x02,
  0xa8, 0x00, 0x00, 0x00, 0x2c, 0xfa, 0xff, 0xff, 0x08, 0x00, 0x00, 0x00,
  0x48, 0x00, 0x00, 0x00, 0x08, 0x00, 0x00, 0x00, 0x00, 0x00, 0x00, 0x00,
  0x00, 0x00, 0x00, 0x00, 0x00, 0x00, 0x00, 0x00, 0x00, 0x00, 0x00, 0x00,
  0x00, 0x00, 0x00, 0x00, 0x00, 0x00, 0x00, 0x00, 0x00, 0x00, 0x00, 0x00,
  0x00, 0x00, 0x00, 0x00, 0x00, 0x00, 0x00, 0x00, 0x00, 0x00, 0x00, 0x00,
  0x00, 0x00, 0x00, 0x00, 0x00, 0x00, 0x00, 0x00, 0x00, 0x00, 0x00, 0x00,
  0x00, 0x00, 0x00, 0x00, 0x00, 0x00, 0x00, 0x00, 0x00, 0x00, 0x00, 0x00,
  0x08, 0x00, 0x00, 0x00, 0x21, 0xb9, 0x4a, 0x37, 0x80, 0x68, 0x2d, 0x37,
  0x4f, 0xe1, 0x18, 0x37, 0xaf, 0xf2, 0x24, 0x37, 0xcc, 0x54, 0x2b, 0x37,
  0x93, 0x50, 0x26, 0x37, 0x1f, 0x29, 0x08, 0x37, 0xbf, 0x73, 0x0a, 0x37,
  0x28, 0x00, 0x00, 0x00, 0x6d, 0x6f, 0x64, 0x65, 0x6c, 0x5f, 0x36, 0x2f,
  0x63, 0x6f, 0x6e, 0x76, 0x32, 0x64, 0x5f, 0x32, 0x30, 0x2f, 0x42, 0x69,
  0x61, 0x73, 0x41, 0x64, 0x64, 0x2f, 0x52, 0x65, 0x61, 0x64, 0x56, 0x61,
  0x72, 0x69, 0x61, 0x62, 0x6c, 0x65, 0x4f, 0x70, 0x00, 0x00, 0x00, 0x00,
  0x01, 0x00, 0x00, 0x00, 0x08, 0x00, 0x00, 0x00, 0xae, 0xfb, 0xff, 0xff,
  0x00, 0x00, 0x00, 0x01, 0x14, 0x00, 0x00, 0x00, 0x88, 0x00, 0x00, 0x00,
  0x07, 0x00, 0x00, 0x00, 0x00, 0x00, 0x00, 0x09, 0x9c, 0x00, 0x00, 0x00,
  0xf4, 0xfa, 0xff, 0xff, 0x08, 0x00, 0x00, 0x00, 0x4c, 0x00, 0x00, 0x00,
  0x08, 0x00, 0x00, 0x00, 0x00, 0x00, 0x00, 0x00, 0x00, 0x00, 0x00, 0x00,
  0x00, 0x00, 0x00, 0x00, 0x00, 0x00, 0x00, 0x00, 0x00, 0x00, 0x00, 0x00,
  0x00, 0x00, 0x00, 0x00, 0x00, 0x00, 0x00, 0x00, 0x00, 0x00, 0x00, 0x00,
  0x00, 0x00, 0x00, 0x00, 0x00, 0x00, 0x00, 0x00, 0x00, 0x00, 0x00, 0x00,
  0x00, 0x00, 0x00, 0x00, 0x00, 0x00, 0x00, 0x00, 0x00, 0x00, 0x00, 0x00,
  0x00, 0x00, 0x00, 0x00, 0x00, 0x00, 0x00, 0x00, 0x00, 0x00, 0x00, 0x00,
  0x08, 0x00, 0x00, 0x00, 0x93, 0xc0, 0x05, 0x3b, 0x84, 0x62, 0x1f, 0x3b,
  0x7c, 0xbb, 0x05, 0x3b, 0x0d, 0x25, 0x27, 0x3b, 0xd1, 0x17, 0x31, 0x3b,
  0x0b, 0xc3, 0xdd, 0x3a, 0x0d, 0xb3, 0x15, 0x3b, 0x74, 0x12, 0x24, 0x3b,
  0x18, 0x00, 0x00, 0x00, 0x6d, 0x6f, 0x64, 0x65, 0x6c, 0x5f, 0x36, 0x2f,
  0x63, 0x6f, 0x6e, 0x76, 0x32, 0x64, 0x5f, 0x32, 0x31, 0x2f, 0x43, 0x6f,
  0x6e, 0x76, 0x32, 0x44, 0x00, 0x00, 0x00, 0x00, 0x04, 0x00, 0x00, 0x00,
  0x08, 0x00, 0x00, 0x00, 0x03, 0x00, 0x00, 0x00, 0x03, 0x00, 0x00, 0x00,
  0x08, 0x00, 0x00, 0x00, 0x76, 0xfc, 0xff, 0xff, 0x00, 0x00, 0x00, 0x01,
  0x14, 0x00, 0x00, 0x00, 0x84, 0x00, 0x00, 0x00, 0x06, 0x00, 0x00, 0x00,
  0x00, 0x00, 0x00, 0x02, 0xa8, 0x00, 0x00, 0x00, 0xbc, 0xfb, 0xff, 0xff,
  0x08, 0x00, 0x00, 0x00, 0x48, 0x00, 0x00, 0x00, 0x08, 0x00, 0x00, 0x00,
  0x00, 0x00, 0x00, 0x00, 0x00, 0x00, 0x00, 0x00, 0x00, 0x00, 0x00, 0x00,
  0x00, 0x00, 0x00, 0x00, 0x00, 0x00, 0x00, 0x00, 0x00, 0x00, 0x00, 0x00,
  0x00, 0x00, 0x00, 0x00, 0x00, 0x00, 0x00, 0x00, 0x00, 0x00, 0x00, 0x00,
  0x00, 0x00, 0x00, 0x00, 0x00, 0x00, 0x00, 0x00, 0x00, 0x00, 0x00, 0x00,
  0x00, 0x00, 0x00, 0x00, 0x00, 0x00, 0x00, 0x00, 0x00, 0x00, 0x00, 0x00,
  0x00, 0x00, 0x00, 0x00, 0x08, 0x00, 0x00, 0x00, 0x54, 0xdc, 0x57, 0x37,
  0x45, 0x9d, 0x80, 0x37, 0x1d, 0xd4, 0x57, 0x37, 0x4a, 0xe0, 0x86, 0x37,
  0x62, 0xe7, 0x8e, 0x37, 0xf3, 0xf2, 0x32, 0x37, 0xf9, 0x98, 0x71, 0x37,
  0x8d, 0x65, 0x84, 0x37, 0x28, 0x00, 0x00, 0x00, 0x6d, 0x6f, 0x64, 0x65,
  0x6c, 0x5f, 0x36, 0x2f, 0x63, 0x6f, 0x6e, 0x76, 0x32, 0x64, 0x5f, 0x32,
  0x31, 0x2f, 0x42, 0x69, 0x61, 0x73, 0x41, 0x64, 0x64, 0x2f, 0x52, 0x65,
  0x61, 0x64, 0x56, 0x61, 0x72, 0x69, 0x61, 0x62, 0x6c, 0x65, 0x4f, 0x70,
  0x00, 0x00, 0x00, 0x00, 0x01, 0x00, 0x00, 0x00, 0x08, 0x00, 0x00, 0x00,
  0x3e, 0xfd, 0xff, 0xff, 0x00, 0x00, 0x00, 0x01, 0x14, 0x00, 0x00, 0x00,
  0xe8, 0x00, 0x00, 0x00, 0x05, 0x00, 0x00, 0x00, 0x00, 0x00, 0x00, 0x09,
  0xfc, 0x00, 0x00, 0x00, 0x84, 0xfc, 0xff, 0xff, 0x08, 0x00, 0x00, 0x00,
  0x8c, 0x00, 0x00, 0x00, 0x10, 0x00, 0x00, 0x00, 0x00, 0x00, 0x00, 0x00,
  0x00, 0x00, 0x00, 0x00, 0x00, 0x00, 0x00, 0x00, 0x00, 0x00, 0x00, 0x00,
  0x00, 0x00, 0x00, 0x00, 0x00, 0x00, 0x00, 0x00, 0x00, 0x00, 0x00, 0x00,
  0x00, 0x00, 0x00, 0x00, 0x00, 0x00, 0x00, 0x00, 0x00, 0x00, 0x00, 0x00,
  0x00, 0x00, 0x00, 0x00, 0x00, 0x00, 0x00, 0x00, 0x00, 0x00, 0x00, 0x00,
  0x00, 0x00, 0x00, 0x00, 0x00, 0x00, 0x00, 0x00, 0x00, 0x00, 0x00, 0x00,
  0x00, 0x00, 0x00, 0x00, 0x00, 0x00, 0x00, 0x00, 0x00, 0x00, 0x00, 0x00,
  0x00, 0x00, 0x00, 0x00, 0x00, 0x00, 0x00, 0x00, 0x00, 0x00, 0x00, 0x00,
  0x00, 0x00, 0x00, 0x00, 0x00, 0x00, 0x00, 0x00, 0x00, 0x00, 0x00, 0x00,
  0x00, 0x00, 0x00, 0x00, 0x00, 0x00, 0x00, 0x00, 0x00, 0x00, 0x00, 0x00,
  0x00, 0x00, 0x00, 0x00, 0x00, 0x00, 0x00, 0x00, 0x00, 0x00, 0x00, 0x00,
  0x00, 0x00, 0x00, 0x00, 0x00, 0x00, 0x00, 0x00, 0x10, 0x00, 0x00, 0x00,
  0x00, 0x08, 0x0a, 0x3b, 0x14, 0x67, 0xea, 0x3a, 0x81, 0xf9, 0x11, 0x3b,
  0x50, 0x23, 0xaa, 0x3a, 0x9a, 0x0c, 0x0d, 0x3b, 0x7a, 0x07, 0xab, 0x3a,
  0x67, 0xdf, 0x0c, 0x3b, 0xf8, 0x11, 0xe9, 0x3a, 0x77, 0x35, 0xac, 0x3a,
  0xd4, 0x09, 0x0f, 0x3b, 0xad, 0x80, 0x07, 0x3b, 0x80, 0x3c, 0x0c, 0x3b,
  0x1c, 0xf2, 0xad, 0x3a, 0xa5, 0x90, 0xd7, 0x3a, 0xc4, 0x48, 0x15, 0x3b,
  0xe5, 0xd0, 0x10, 0x3b, 0x18, 0x00, 0x00, 0x00, 0x6d, 0x6f, 0x64, 0x65,
  0x6c, 0x5f, 0x36, 0x2f, 0x63, 0x6f, 0x6e, 0x76, 0x32, 0x64, 0x5f, 0x32,
  0x32, 0x2f, 0x43, 0x6f, 0x6e, 0x76, 0x32, 0x44, 0x00, 0x00, 0x00, 0x00,
  0x04, 0x00, 0x00, 0x00, 0x10, 0x00, 0x00, 0x00, 0x03, 0x00, 0x00, 0x00,
  0x03, 0x00, 0x00, 0x00, 0x08, 0x00, 0x00, 0x00, 0x66, 0xfe, 0xff, 0xff,
  0x00, 0x00, 0x00, 0x01, 0x14, 0x00, 0x00, 0x00, 0xe4, 0x00, 0x00, 0x00,
  0x04, 0x00, 0x00, 0x00, 0x00, 0x00, 0x00, 0x02, 0x08, 0x01, 0x00, 0x00,
  0xac, 0xfd, 0xff, 0xff, 0x08, 0x00, 0x00, 0x00, 0x88, 0x00, 0x00, 0x00,
  0x10, 0x00, 0x00, 0x00, 0x00, 0x00, 0x00, 0x00, 0x00, 0x00, 0x00, 0x00,
  0x00, 0x00, 0x00, 0x00, 0x00, 0x00, 0x00, 0x00, 0x00, 0x00, 0x00, 0x00,
  0x00, 0x00, 0x00, 0x00, 0x00, 0x00, 0x00, 0x00, 0x00, 0x00, 0x00, 0x00,
  0x00, 0x00, 0x00, 0x00, 0x00, 0x00, 0x00, 0x00, 0x00, 0x00, 0x00, 0x00,
  0x00, 0x00, 0x00, 0x00, 0x00, 0x00, 0x00, 0x00, 0x00, 0x00, 0x00, 0x00,
  0x00, 0x00, 0x00, 0x00, 0x00, 0x00, 0x00, 0x00, 0x00, 0x00, 0x00, 0x00,
  0x00, 0x00, 0x00, 0x00, 0x00, 0x00, 0x00, 0x00, 0x00, 0x00, 0x00, 0x00,
  0x00, 0x00, 0x00, 0x00, 0x00, 0x00, 0x00, 0x00, 0x00, 0x00, 0x00, 0x00,
  0x00, 0x00, 0x00, 0x00, 0x00, 0x00, 0x00, 0x00, 0x00, 0x00, 0x00, 0x00,
  0x00, 0x00, 0x00, 0x00, 0x00, 0x00, 0x00, 0x00, 0x00, 0x00, 0x00, 0x00,
  0x00, 0x00, 0x00, 0x00, 0x00, 0x00, 0x00, 0x00, 0x00, 0x00, 0x00, 0x00,
  0x10, 0x00, 0x00, 0x00, 0x2f, 0xec, 0x80, 0x37, 0x39, 0xef, 0x5a, 0x37,
  0x80, 0x57, 0x88, 0x37, 0x1b, 0xe9, 0x1e, 0x37, 0xcd, 0xbd, 0x83, 0x37,
  0x37, 0xbe, 0x1f, 0x37, 0x96, 0x93, 0x83, 0x37, 0xa0, 0xb0, 0x59, 0x37,
  0x46, 0xd8, 0x20, 0x37, 0x6d, 0x99, 0x85, 0x37, 0x28, 0x1f, 0x7d, 0x37,
  0x6f, 0xfb, 0x82, 0x37, 0x94, 0x77, 0x22, 0x37, 0x05, 0x57, 0x49, 0x37,
  0xd9, 0x6e, 0x8b, 0x37, 0x76, 0x42, 0x87, 0x37, 0x28, 0x00, 0x00, 0x00,
  0x6d, 0x6f, 0x64, 0x65, 0x6c, 0x5f, 0x36, 0x2f, 0x63, 0x6f, 0x6e, 0x76,
  0x32, 0x64, 0x5f, 0x32, 0x32, 0x2f, 0x42, 0x69, 0x61, 0x73, 0x41, 0x64,
  0x64, 0x2f, 0x52, 0x65, 0x61, 0x64, 0x56, 0x61, 0x72, 0x69, 0x61, 0x62,
  0x6c, 0x65, 0x4f, 0x70, 0x00, 0x00, 0x00, 0x00, 0x01, 0x00, 0x00, 0x00,
  0x10, 0x00, 0x00, 0x00, 0x8e, 0xff, 0xff, 0xff, 0x00, 0x00, 0x00, 0x01,
  0x14, 0x00, 0x00, 0x00, 0x30, 0x00, 0x00, 0x00, 0x03, 0x00, 0x00, 0x00,
  0x00, 0x00, 0x00, 0x09, 0x44, 0x00, 0x00, 0x00, 0xd4, 0xfe, 0xff, 0xff,
  0x08, 0x00, 0x00, 0x00, 0x10, 0x00, 0x00, 0x00, 0x01, 0x00, 0x00, 0x00,
  0x00, 0x00, 0x00, 0x00, 0x00, 0x00, 0x00, 0x00, 0x01, 0x00, 0x00, 0x00,
  0x3f, 0x91, 0xa3, 0x3b, 0x18, 0x00, 0x00, 0x00, 0x6d, 0x6f, 0x64, 0x65,
  0x6c, 0x5f, 0x36, 0x2f, 0x63, 0x6f, 0x6e, 0x76, 0x32, 0x64, 0x5f, 0x32,
  0x33, 0x2f, 0x43, 0x6f, 0x6e, 0x76, 0x32, 0x44, 0x00, 0x00, 0x00, 0x00,
  0x04, 0x00, 0x00, 0x00, 0x01, 0x00, 0x00, 0x00, 0x01, 0x00, 0x00, 0x00,
  0x01, 0x00, 0x00, 0x00, 0x10, 0x00, 0x00, 0x00, 0x00, 0x00, 0x16, 0x00,
  0x1c, 0x00, 0x18, 0x00, 0x17, 0x00, 0x10, 0x00, 0x0c, 0x00, 0x08, 0x00,
  0x00, 0x00, 0x00, 0x00, 0x00, 0x00, 0x07, 0x00, 0x16, 0x00, 0x00, 0x00,
  0x00, 0x00, 0x00, 0x01, 0x14, 0x00, 0x00, 0x00, 0x30, 0x00, 0x00, 0x00,
  0x02, 0x00, 0x00, 0x00, 0x00, 0x00, 0x00, 0x02, 0x54, 0x00, 0x00, 0x00,
  0x5c, 0xff, 0xff, 0xff, 0x08, 0x00, 0x00, 0x00, 0x10, 0x00, 0x00, 0x00,
  0x01, 0x00, 0x00, 0x00, 0x00, 0x00, 0x00, 0x00, 0x00, 0x00, 0x00, 0x00,
  0x01, 0x00, 0x00, 0x00, 0x9b, 0x84, 0x2c, 0x38, 0x28, 0x00, 0x00, 0x00,
  0x6d, 0x6f, 0x64, 0x65, 0x6c, 0x5f, 0x36, 0x2f, 0x63, 0x6f, 0x6e, 0x76,
  0x32, 0x64, 0x5f, 0x32, 0x33, 0x2f, 0x42, 0x69, 0x61, 0x73, 0x41, 0x64,
  0x64, 0x2f, 0x52, 0x65, 0x61, 0x64, 0x56, 0x61, 0x72, 0x69, 0x61, 0x62,
  0x6c, 0x65, 0x4f, 0x70, 0x00, 0x00, 0x00, 0x00, 0x01, 0x00, 0x00, 0x00,
  0x01, 0x00, 0x00, 0x00, 0x00, 0x00, 0x16, 0x00, 0x20, 0x00, 0x1c, 0x00,
  0x1b, 0x00, 0x14, 0x00, 0x10, 0x00, 0x0c, 0x00, 0x00, 0x00, 0x00, 0x00,
  0x08, 0x00, 0x07, 0x00, 0x16, 0x00, 0x00, 0x00, 0x00, 0x00, 0x00, 0x01,
  0x18, 0x00, 0x00, 0x00, 0x34, 0x00, 0x00, 0x00, 0x54, 0x00, 0x00, 0x00,
  0x01, 0x00, 0x00, 0x00, 0x00, 0x00, 0x00, 0x09, 0x68, 0x00, 0x00, 0x00,
  0x04, 0x00, 0x00, 0x00, 0xff, 0xff, 0xff, 0xff, 0x60, 0x00, 0x00, 0x00,
  0x60, 0x00, 0x00, 0x00, 0x01, 0x00, 0x00, 0x00, 0x0c, 0x00, 0x0c, 0x00,
  0x00, 0x00, 0x00, 0x00, 0x08, 0x00, 0x04, 0x00, 0x0c, 0x00, 0x00, 0x00,
  0x08, 0x00, 0x00, 0x00, 0x14, 0x00, 0x00, 0x00, 0x01, 0x00, 0x00, 0x00,
  0x80, 0xff, 0xff, 0xff, 0xff, 0xff, 0xff, 0xff, 0x00, 0x00, 0x00, 0x00,
  0x01, 0x00, 0x00, 0x00, 0x81, 0x80, 0x80, 0x3b, 0x19, 0x00, 0x00, 0x00,
  0x73, 0x65, 0x72, 0x76, 0x69, 0x6e, 0x67, 0x5f, 0x64, 0x65, 0x66, 0x61,
  0x75, 0x6c, 0x74, 0x5f, 0x69, 0x6e, 0x70, 0x75, 0x74, 0x5f, 0x37, 0x3a,
  0x30, 0x00, 0x00, 0x00, 0x04, 0x00, 0x00, 0x00, 0x01, 0x00, 0x00, 0x00,
  0x60, 0x00, 0x00, 0x00, 0x60, 0x00, 0x00, 0x00, 0x01, 0x00, 0x00, 0x00,
  0x02, 0x00, 0x00, 0x00, 0x24, 0x00, 0x00, 0x00, 0x04, 0x00, 0x00, 0x00,
  0xf0, 0xff, 0xff, 0xff, 0x0e, 0x00, 0x00, 0x00, 0x02, 0x00, 0x00, 0x00,
  0x00, 0x00, 0x00, 0x0e, 0x0c, 0x00, 0x10, 0x00, 0x0f, 0x00, 0x00, 0x00,
  0x08, 0x00, 0x04, 0x00, 0x0c, 0x00, 0x00, 0x00, 0x03, 0x00, 0x00, 0x00,
  0x03, 0x00, 0x00, 0x00, 0x00, 0x00, 0x00, 0x03
};
unsigned int fomo_detector_int8_tflite_len = 5960;
